<<<<<<< Updated upstream
:020000040800F2
:1000000088330120250300082D0300082F03000872
:100010003103000833030008350300080000000026
:100020000000000000000000000000006502000861
:100030003903000800000000C1020008A9070008F9
:100040003F0300083F0300083F0300083F03000888
:100050003F0300083F0300083F0300083F03000878
:100060003F0300083F0300083F0300083F03000868
:100070003F0300083F0300083F0300083F03000858
:100080003F0300083F0300083F0300083F03000848
:100090003F0300083F0300083F0300083F03000838
:1000A0003F0300083F0300083F0300083F03000828
:1000B0003F0300083F030008410800083F03000811
:1000C0003F0300083F0300083F0300083F03000808
:1000D0003F030008D10800083F0300083F03000861
:1000E0003F0300083F0300083F0300083F030008E8
:1000F0003F0300083F0300083F0300083F030008D8
:100100003F0300083F0300083F0300083F030008C7
:100110003F0300083F0300083F0300083F030008B7
:100120003F0300083F0300083F0300083F030008A7
:100130003F03000800000000000000003F0300082B
:100140003F0300083F0300083F0300083F03000887
:100150003F0300083F0300083F0300083F03000877
:100160003F0300083F0300083F0300083F03000867
:100170003F0300083F0300083F03000800000000A1
:10018000000000003F030008000000000000000025
:100190003F03000800000000000000003F030008CB
:1001A0000000000000000000000000003F03000805
:1001B0003F0300083F0300083F0300083F03000817
:1001C0003F03000800F002F800F03CF80AA090E8B5
:1001D000000C82448344AAF10107DA4501D100F002
:1001E00031F8AFF2090EBAE80F0013F0010F18BF93
:1001F000FB1A43F0010318473012000050120000B0
:10020000103A24BF78C878C1FAD8520724BF30C842
:1002100030C144BF04680C60704700000023002414
:1002200000250026103A28BF78C1FBD8520728BF06
:1002300030C148BF0B6070471FB501F0EFF81FBD1C
:1002400010B510BD00F091F81146FFF7F5FF00F072
:10025000CDFB00F0AFF803B4FFF7F2FF03BC00F0F2
:10026000B7F800002C4B19680868B0E8F04F80F32D
:100270000988BFF36F8F4FF0000080F3118870473B
:100280000000000008480068006880F308884FF00C
:10029000000080F3148862B661B6BFF34F8FBFF3DE
:1002A0006F8F00DF00BF00BF08ED00E0DFF80C003B
:1002B000016841F470010160704700BF88ED00E003
:1002C000EFF30980BFF36F8F134B1A681EF0100F06
:1002D00008BF20ED108A20E9F04F106009B44FF0FC
:1002E000BF0080F31188BFF34F8FBFF36F8F00F013
:1002F00051FE4FF0000080F3118809BC19680868AE
:10030000B0E8F04F1EF0100F08BFB0EC108A80F379
:100310000988BFF36F8F704720000020EFF305803E
:10032000704700000948804709480047FEE7FEE79C
:10033000FEE7FEE7FEE7FEE7FEE7FEE7FEE7FEE795
:1003400004480549054A064B70470000DD070008D0
:10035000C5010008882D012088330120882F012045
:10036000882F0120704770477047754600F02CF8C1
:10037000AE4605006946534620F00700854618B092
:1003800020B5FFF7DDFFBDE820404FF000064FF03D
:1003900000074FF000084FF0000B21F00701AC46BA
:1003A000ACE8C009ACE8C009ACE8C009ACE8C009D9
:1003B0008D46704710B50446AFF300802046BDE877
:1003C0001040FFF748BF000000487047242D01206F
:1003D00001491820ABBEFEE726000200704700006E
:1003E0003048006840F482402E4908602D48143897
:1003F000006840F001002B49143908602A48006861
:1004000043F20F310843284908600846806843F2E8
:100410000F310843244988600846C06843F20F3111
:1004200088432149C8602148006840F400302049D1
:10043000C1F80403084600691E4908431C490861C5
:100440000846806840F4401088600846806840F0A4
:10045000020088600846806840F470208860084682
:10046000406840F4807048600846406840F0007082
:1004700048604FF4401088630846806B20F01F00EE
:1004800088630846806B0C4908430949886308461D
:10049000806840F0010088600846806840F4800071
:1004A0008860704744380240000002400423014045
:1004B000002001401F300C00201001001149096884
:1004C00041F480010F4A11600F49104A1160111D5B
:1004D00008600521121F1160111F09680C4A1143A1
:1004E0000A4A083A11601146096841F00101116099
:1004F0000549091F496941F08001034A121F5161F2
:10050000704700003038024004100140C0640240CF
:10051000400400082048006840F003001E490860BD
:100520001E48006820F440601C49086008460068C6
:1005300040F48060086019480C30006820F4406086
:1005400016490C3108601548001D006820F0200095
:100550001249091D0860081D006840F44060091D2B
:1005600008600F48006820F440600D4908600846A4
:10057000006840F4806008600846C06820F440606D
:10058000C8600846406820F020004860084680683F
:1005900040F44060886070473038024000040240F8
:1005A000000002402648006840F00100244908602D
:1005B00000BF2348006800F002000028F9D021485D
:1005C000006840F2037108431E4908601C48083067
:1005D00000684FF6F0418843194908310860084621
:1005E000006840F414400860081F0068164908407D
:1005F0001349091D0860084600681449084310495A
:10060000091D0860081F006840F08070091F08601D
:1006100000BF0B48006800F000700028F9D00848BF
:100620000830006840F0020005490831086000BF4A
:1006300003480830006800F00C000828F8D1704723
:1006400000380240003C02400080BC8F081E0020A1
:100650001548006840F004001349086047F22F5025
:10066000124908600120091D086010481C38006804
:1006700040F001000D491C3908600C48283800681A
:1006800040F001000949283908601E20002809DBD4
:1006900000F01F02012191404209920002F1E02284
:1006A000C2F8001100BF70474038024028080040DF
:1006B00010B52748006840F010002549086024481C
:1006C0001438006840F001002149143908602148BD
:1006D000006840F420101F4908600846806840F414
:1006E000701088600846C06840F4A010C8600846D2
:1006F000406A40F4EE611748416241201649886023
:100700000846C06842F22C0108431349C8602520FE
:10071000002809DB00F01F020121914042099200EC
:1007200002F1E022C2F8001100BF252004210028B8
:1007300004DB0A07130E094A135406E00A07140ED5
:10074000074A00F00F031B1FD45400BF10BD000068
:1007500044380240000002400010014000E400E084
:1007600018ED00E04FF48040014908607047000038
:10077000140C024010B50246002305E019465C1C2B
:10078000E3B2505C00F004F8D05C0028F6D110BD54
:1007900000BF0449096801F040010029F9D001496E
:1007A000486070470010014010B500BFBF2080F3C3
:1007B0001188BFF34F8FBFF36F8F00BF00F0EEFCC7
:1007C00018B14FF080500449086000BF002080F34A
:1007D000118800BF10BD000004ED00E0144800685F
:1007E00040F47000124908601248006840F00100AF
:1007F0001049086000200F49083108600D48006862
:100800000D4908400B4908600C48091D0860081F85
:10081000006820F48020091F0860002005490C3181
:1008200008604FF00060024980390860704700009E
:1008300088ED00E000380240FFFFF6FE1030002493
:1008400010B51F48006820F001001D4908601D48D0
:10085000406940F020001B4948611B48806840F413
:1008600080001949886000BF1748006800F0040044
:100870000028F9D01448C06B144948701248006C25
:1008800088701148406CC8700F48806C0871012056
:1008900009E00E49095C612904D10C49095C491C35
:1008A0000A4A1154401C0528F3DB084800F04EF8B2
:1008B0000448406920F020000249486110BD000052
:1008C0001008004000000240002001400C00002001
:1008D00010B51848006800F0200048B315480068BB
:1008E00020F02000134908600846406830280DD1E8
:1008F000FFF74EFF0A20FFF74BFF0FA0FFF73AFF6D
:100900000F48006820F400400D490860094840681D
:1009100031280DD1FFF73CFF0A20FFF739FF09A06E
:10092000FFF728FF0648006840F4004004490860CB
:1009300010BD0000001001404F46460D0A000000A7
:10094000140C02404F4E0D0A000000000B490968CC
:1009500021F00101094A11600521121D11600749AA
:10096000AC39096841F00061044AAC3A11600349AE
:10097000096841F00101014A11607047B864024002
:100980001848006820F04040164908600846006892
:1009900020F0605008600846006840F04050086051
:1009A00010482830006840F004000E4928310860E3
:1009B0000D48006840F400200B4908600A480830E0
:1009C000006840F0F000084908310860081D006820
:1009D00040F48020091D08600348406A02494862CB
:1009E0007047000008380240000802401CB5FFF7BD
:1009F000D9FDFFF7C5FFFFF78DFDFFF759FEFFF7A4
:100A0000EFFC0E48FFF75AFDFFF722FE0020012100
:100A100003462022CDE9001009A10B4800F08EFB0F
:100A200000220221052000F02DFB0849086000F09B
:100A300077FA01E0FFF796FEFCE700000C000020CB
:100A400054657374000000000D10000800000020C1
:100A50002DE9F04105460E4616480768164800681D
:100A6000001D00F0C9F9681C38B936B11248016898
:100A7000091D124800F0FEF91AE07C190E480068C2
:100A80004460BC4207D20C480168091D0C4800684C
:100A900000F0D6F90CE008480168091D0948006813
:100AA00000F0CEF908480068844201D2064804608C
:100AB000BDE8F0813400002020000020102D01202E
:100AC00028000020240000205000002010B504461B
:100AD00000F0DCF922480068401C214908602148E8
:100AE000006840B91F4804600846006801280DD11D
:100AF00000F0DAF80AE01C48006838B919480068C4
:100B0000C06AE16A884201D8164804601748006844
:100B1000401C164908601649E06A0968884202D9F3
:100B20001349E06A0860E16A01EB8101114A02EBB6
:100B30008100211D00F09EF900F0BAF90A48006812
:100B400068B108480068C06AE16A884207D24FF07D
:100B5000805009490860BFF34F8FBFF36F8F10BDFE
:100B600030000020200000203C0000204C0000202D
:100B7000380000205C2C012004ED00E010B516E0E8
:100B800000F084F90C48C068C468201D00F034F9F6
:100B90000A480068401E0949086009480068401E6C
:100BA0000749086000F084F9204600F00BF804487B
:100BB00000680028E4D110BDFC2C0120300000208A
:100BC0002C00002010B50446206B00F081F920466F
:100BD00000F07EF910BD000000BFFFF7CFFF064810
:100BE00000680128F9D94FF0805004490860BFF32C
:100BF0004F8FBFF36F8FF0E75C2C012004ED00E016
:100C00002DE9F04106460D4617469846069C0DB95B
:100C1000246000E02760E66325640121204600F09F
:100C20004DFABDE8F0812DE9FF5F80460E46914602
:100C3000DDE90E7A109CA9F10100216B01EB800B1C
:100C40002BF0070B002507E0715D04F134004155DE
:100C5000705D00B902E06D1C102DF5D300BF0021BE
:100C600043200155052F00D30427E762201D00F023
:100C7000E4F804F1180000F0E0F82461C7F1050081
:100C8000A06164620020606484F8480041465846D0
:100C9000039A00F09BF82060BAF1000F01D0CAF867
:100CA0000040BDE8FF9F000010B5002407E004EB02
:100CB00084010F4A02EB810000F0B2F8641C052C9D
:100CC000F5D30C4800F0ACF80B4800F0A9F80B483D
:100CD00000F0A6F80A4800F0A3F80A4800F0A0F8CF
:100CE00004480949086004480849086010BD00002C
:100CF0005C2C0120C02C0120D42C0120E82C0120E8
:100D0000FC2C0120102D01202400002028000020B0
:100D10000A490968096809B9012100E0002121B1E7
:100D20004FF0FF31064A116006E004490968C968BE
:100D3000C868034A41681160704700002400002021
:100D40005000002000BFBF2080F31188BFF34F8FF9
:100D5000BFF36F8F00BF00BFFEE7000070B5044611
:100D6000002504F0070020B104F00700C0F10800DE
:100D7000044400F007F91148006820B9104820F039
:100D800007000E4908600F48006820440E49884259
:100D900010D20C48006820440A490968884209D9E1
:100DA0000648006807490968451806480068204455
:100DB0000449086000F0BEFA284670BD1800002003
:100DC0006400002014000020F82B0100001F4FF0E9
:100DD00080730360001F21F001030360001F054BB7
:100DE000036014380260001F6FF0020303602038B4
:100DF00070470000450D000801460A69D1E901303D
:100E00009860D1E9010358605068884201D1886830
:100E10005060002008611068401E10601068704724
:100E200000F1080141604FF0FF31816000F10801DD
:100E3000C1600161002101607047002101617047BC
:100E400010B502460B685C1C0CB9106907E002F192
:100E5000080000E04068446824689C42FAD944686D
:100E60004C604C68A160886041600A611468641C31
:100E7000146010BD42684A6093688B609368596043
:100E80009160086103685B1C0360704700BFBF206E
:100E900080F31188BFF34F8FBFF36F8F00BF0348FC
:100EA0000068401C01490860704700001C000020D9
:100EB00006480068401E054908600846006820B9D9
:100EC000002080F3118800BF00BF70471C00002085
:100ED0007047000000204FF0E0210861886102485F
:100EE0004861072008617047BFD4010070B504460F
:100EF000002544B100F046F800212046FFF7A8FD88
:100F000000F018FA05463DB94FF0805003490860DB
:100F1000BFF34F8FBFF36F8F70BD000004ED00E093
:100F20001CB5114800210B462022CDE900100FA16D
:100F3000104800F003F90446012C14D100BFBF2073
:100F400080F31188BFF34F8FBFF36F8F00BF4FF057
:100F5000FF3009490860012008490860002008495D
:100F6000086000F06BF81CBD5400002049444C455B
:100F700000000000D90B0008500000203C000020B9
:100F80003400002002480068401C01490860704796
:100F9000580000201848006818B10120174908605F
:100FA00028E00020154908601548016800E0491E46
:100FB00001EB8100134A52F8200008B9012000E03B
:100FC00000200028F3D101EB81020E4B03EB8200DD
:100FD00042685268426000F108024368934202D1BD
:100FE0004268526842604268D268074B1A600448FF
:100FF000016000BF7047000058000020440000203E
:10100000380000205C2C01202000002013E00A485A
:10101000006840F02000084908604FF4FA70FFF7BC
:1010200065FF0548006820F02000034908604FF480
:10103000FA70FFF75BFFEAE71404024010B50E48B0
:10104000006840F47F000C4908600846006840F0E2
:101050007F400860FFF73EFF002008490860FFF767
:1010600025F90748006840F0404005490860FFF74F
:1010700009F9002010BD000020ED00E01C00002058
:1010800034EF00E02DE9F84307460D4690460DB9D0
:10109000002601E007FB05F606F14800FFF75EFEBB
:1010A000044644B104F1480943464A4629463846B5
:1010B0000094FFF7A5FD2046BDE8F88370B505460E
:1010C0000E462C46FFF7E2FED4E90F12206801FB22
:1010D000020060600020A0632068A060E06B401EFA
:1010E000226C216800FB0210E060FF2084F84400BD
:1010F00084F845009EB9206908B9012000E000206D
:10110000A8B904F1100000F0D5F880B14FF080507C
:1011100009490860BFF34F8FBFF36F8F07E004F1F9
:101120001000FFF77DFE04F12400FFF779FEFFF7C2
:10113000BFFE012070BD000004ED00E02DE9FF4F6F
:1011400085B0804689461746DDE912ABB800FFF747
:1011500005FE064656B14C20FFF700FE04460CB1D2
:10116000266304E03046FFF7B3FE00E000247CB1C4
:101170000020CDE900ABCDE902403A464946404661
:10118000089BFFF750FD2046FFF7A0FC012501E07A
:101190004FF0FF35284609B0BDE8F08F2DE9F0414A
:1011A000002739480068002862D138480068451C8B
:1011B000364805608DB93648D0F80080354800685B
:1011C000334908603348C0F8008033480068401C49
:1011D00031490860FFF79CFD00BF30480068854238
:1011E0003AD300BF2A480068006808B9012000E02F
:1011F000002020B14FF0FF30284908602BE0244840
:101200000068C068C4686668B54202D223480660B8
:1012100021E0201DFFF7F0FDA06A18B104F11800CD
:10122000FFF7EAFD1E49E06A0968884202D91C49B5
:10123000E06A0860E16A01EB81011A4A02EB810071
:10124000211DFFF717FE1849E06A0968C96A88423C
:10125000C8D30127C6E700BF13480068C06A00EB87
:101260008000104951F82000012800D9012704E02E
:101270000E480068401C0D4908600D48006800B128
:1012800001273846BDE8F0815800002034000020D6
:1012900024000020280000204800002050000020EA
:1012A000380000205C2C012020000020400000209D
:1012B0004400002070B50646F068C46804F11800C8
:1012C000FFF79AFD15480068A0B9201DFFF794FDAF
:1012D0001349E06A0968884202D91149E06A086046
:1012E000E16A01EB81010F4A02EB8100211DFFF74A
:1012F000C1FD04E004F118010B48FFF7BBFD0B49E9
:10130000E06A0968C96A884204D9012501200849B0
:10131000086000E00025284670BD0000580000204D
:10132000380000205C2C0120E82C01202000002047
:101330004400002070B500240026FFF7A7FD2E48CA
:101340000068401E2C4908600846006800284ED1FD
:101350002A48006800284AD023E02948C068C468A9
:1013600004F11800FFF748FD201DFFF745FD254952
:10137000E06A0968884202D92249E06A0860E16AA5
:1013800001EB8101204A02EB8100211DFFF772FD74
:101390001E49E06A0968C96A884202D301201C49D3
:1013A00008601748006808B9012000E00020002804
:1013B000D3D00CB1FFF7ACFC1648056865B100BF8F
:1013C000FFF7ECFE10B10120114908606D1E002DE1
:1013D000F6D100200F4908600D48006838B1012699
:1013E00030070D490860BFF34F8FBFF36F8FFFF7D2
:1013F0005FFD304670BD0000580000203000002026
:10140000E82C0120380000205C2C01202000002066
:10141000440000204000002004ED00E04FF0407048
:10142000E1EE100A70470000481400080000002098
:101430005C00000000020008A41400085C0000200A
:101440002C3301001C020008000000000000000016
:101450000100000061010101010000000000000026
:1014600000000000AAAAAAAA0000000000000000D4
:10147000000000000000000000000000000000006C
:10148000000000000000000000000000000000005C
:10149000000000000000000000000000000000004C
:0414A0000000000048
:04000005080001C529
:00000001FF
=======
:020000040800F2
:10000000803301202D030008350300083703000862
:10001000390300083B0300083D030008000000000E
:100020000000000000000000000000006D02000859
:100030004103000800000000C9020008ED090008A3
:100040004703000847030008470300084703000868
:100050004703000847030008470300084703000858
:100060004703000847030008470300084703000848
:100070004703000847030008470300084703000838
:100080004703000847030008470300084703000828
:100090004703000847030008470300084703000818
:1000A0004703000847030008470300084703000808
:1000B00047030008470300084703000847030008F8
:1000C00047030008470300084703000847030008E8
:1000D00047030008850A0008470300084703000893
:1000E00047030008470300084703000847030008C8
:1000F00047030008470300084703000847030008B8
:1001000047030008470300084703000847030008A7
:100110004703000847030008470300084703000897
:100120004703000847030008470300084703000887
:10013000470300080000000000000000470300081B
:100140004703000847030008470300084703000867
:100150004703000847030008470300084703000857
:100160004703000847030008470300084703000847
:100170004703000847030008470300080000000089
:10018000000000004703000800000000000000001D
:1001900047030008000000000000000047030008BB
:1001A00000000000000000000000000047030008FD
:1001B00047030008470300084703000847030008F7
:1001C0004703000800F002F800F041F80AA090E8A8
:1001D000000C82448344AAF10107DA4501D100F002
:1001E00036F8AFF2090EBAE80F0013F0010F18BF8E
:1001F000FB1A43F001031847AC180000CC180000AC
:10020000103A24BF78C878C1FAD8520724BF30C842
:1002100030C144BF04680C60704700000023002414
:1002200000250026103A28BF78C1FBD8520728BF06
:1002300030C148BF0B607047752900F0DF80002097
:1002400070471FB501F028FC1FBD10B510BD00F0B0
:1002500002FA1146FFF7F5FF00F088FC00F020FAE3
:1002600003B4FFF7F2FF03BC00F028FA2C4B196827
:100270000868B0E8F04F80F30988BFF36F8F4FF044
:10028000000080F3118870470000000008480068F3
:10029000006880F308884FF0000080F3148862B68D
:1002A00061B6BFF34F8FBFF36F8F00DF00BF00BF9A
:1002B00008ED00E0DFF80C00016841F47001016016
:1002C000704700BF88ED00E0EFF30980BFF36F8F48
:1002D000134B1A681EF0100F08BF20ED108A20E99A
:1002E000F04F106009B44FF0BF0080F31188BFF3E6
:1002F0004F8FBFF36F8F00F0E1FF4FF0000080F3EE
:10030000118809BC19680868B0E8F04F1EF0100F9A
:1003100008BFB0EC108A80F30988BFF36F8F704775
:1003200018000020EFF3058070470000094880475F
:1003300009480047FEE7FEE7FEE7FEE7FEE7FEE7C7
:10034000FEE7FEE7FEE7FEE704480549054A064BDF
:1003500070470000210A0008C5010008802D012017
:1003600080330120802F0120802F01200FB41CB585
:10037000074B06AA7B4469460090059800F021F9D6
:100380000020694600F030F91CBC5DF814FB000049
:10039000710200002DE9F0410E4604460020206263
:1003A0002046E168884730B3252805D0D4E90121EB
:1003B0009047206A401CF2E7E16820460027884702
:1003C000050018D0A5F14100192802D820354FF4B6
:1003D00000673246294620462760FFF72DFF40B1CF
:1003E000012804D0F61D26F007060836D8E7361D8A
:1003F000D6E72846DAE7206ABDE8F0812DE9F0412A
:100400000646002410687529314616A510D0AFF3B2
:100410000080002802DA404213A507E031688A070D
:1004200001D512A502E0490704D511A5012401E078
:10043000AFF3008000210A2206F1240709E0B0FB97
:10044000F2FCB0FBF2F302FB1C003030785418468B
:10045000491C0028F3D123462A463046BDE8F04126
:1004600000F050B8000000002D0000002B0000003C
:1004700020000000032A40F2308010F0030C00F04E
:10048000158011F8013BBCF1020F624498BF11F8CE
:1004900001CB00F8013B38BF11F8013BA2F1040287
:1004A00098BF00F801CB38BF00F8013B11F00303FF
:1004B00000F09F80083AC0F0088051F8043B083AE9
:1004C00051F804CBA0E80810F5E7121D5CBF51F805
:1004D000043B40F8043BAFF30080D20724BF11F87F
:1004E000013B11F801CB48BF11F8012B24BF00F8E4
:1004F000013B00F801CB48BF00F8012B7047704763
:10050000704770472DE9F0470D46994692460446DC
:1005100000F124080168880604D5E06921F0100183
:10052000216000E00120A84201DD471B00E0002718
:10053000A1697A1902EB0900081AA0612078C006A7
:1005400002D42046AFF30080002608E0D4E9012160
:100550001AF806009047206A401C761C20624E451F
:10056000F4DB2078C0060AD52046AFF3008006E011
:10057000D4E9012130209047206A401C2062381EB7
:10058000A7F10107F4DC07E0D4E9012118F8050020
:100590009047206A401C2062281EA5F10105F3DC6B
:1005A0002046AFF300802078000602D50220BDE887
:1005B000F0870120FBE7000001694A1C026108780E
:1005C000704700B58FB0CDE9013100210591054993
:1005D0007944CDE9031011466846FFF7DBFE0FB002
:1005E00000BD0000E5FFFFFF0A6802F8010B0A608A
:1005F000704710B5203AC0F00B80B1E81850203A8F
:10060000A0E81850B1E81850A0E81850BFF4F5AFB2
:100610005FEA027C24BFB1E81850A0E8185044BF3C
:1006200018C918C0BDE810405FEA827C24BF51F8A9
:10063000043B40F8043B08BF7047D20728BF31F89D
:10064000023B48BF11F8012B28BF20F8023B48BFEE
:1006500000F8012B7047754600F02CF8AE460500F7
:100660006946534620F00700854618B020B5FFF7CD
:100670006BFEBDE820404FF000064FF000074FF042
:1006800000084FF0000B21F00701AC46ACE8C009B0
:10069000ACE8C009ACE8C009ACE8C0098D467047B9
:1006A00010B50446AFF300802046BDE81040FFF7C8
:1006B000D7BD0000004870471C2D012001491820BB
:1006C000ABBEFEE726000200704700002648006827
:1006D00040F482402449086023481438006840F000
:1006E00001002149143908602048006840F00300E7
:1006F0001E4908600846806840F00300886008468C
:10070000C06820F00300C8601948006840F4003059
:100710001849C1F804030846006940F00700086161
:100720000846806840F0706088600846806840F045
:10073000405088600846406840F480704860084631
:10074000806840F4806088600846806820F002007D
:1007500088600846406B20F00100486308468068C6
:1007600040F00100886070474438024000000240B9
:1007700004230140002001402048006840F00300AD
:100780001E4908601E48006820F440601C4908604B
:100790000846006840F48060086019480C30006822
:1007A00020F4406016490C3108601548001D0068AF
:1007B00020F020001249091D0860081D006840F45F
:1007C0004060091D08600F48006820F440600D4932
:1007D00008600846006840F4806008600846C06809
:1007E00020F44060C8600846406820F0200048605F
:1007F0000846806840F440608860704730380240A6
:1008000000040240000002402648006840F0010059
:100810002449086000BF2348006800F00200002857
:10082000F9D02148006840F2037108431E4908606E
:100830001C48083000684FF6F041884319490831D8
:1008400008600846006840F414400860081F00680B
:10085000164908401349091D0860084600681449F4
:1008600008431049091D0860081F006840F08070A7
:10087000091F086000BF0B48006800F000700028E6
:10088000F9D008480830006840F0020005490831F6
:10089000086000BF03480830006800F00C0008281A
:1008A000F8D1704700380240003C02400080BC8F05
:1008B000081E002010B52748006840F010002549A8
:1008C000086024481438006840F0010021491439B8
:1008D00008602148006840F420101F49086008465D
:1008E000806840F4701088600846C06840F4A0102A
:1008F000C8600846406A40F4EE611748416240F221
:100900000920164988600846C06842F22C01084355
:100910001249C8602520002809DB00F01F020121D0
:1009200091404209920002F1E022C2F8001100BF9A
:1009300025200421002804DB0A07130E084A13545B
:1009400006E00A07140E074A00F00F031B1FD454D9
:1009500000BF10BD443802400000024000100140BA
:1009600000E400E018ED00E04FF480400149086029
:1009700070470000140C024000BF0449096801F0F0
:1009800040010029F9D0014948607047001001403A
:1009900010B50246002305E019465C1CE3B2505C2A
:1009A00000F004F8D05C0028F6D110BD00BF044967
:1009B000096801F040010029F9D0014948607047F9
:1009C000001001400848806840F080400649886077
:1009D00000BF0548006800F002000028F9D0024876
:1009E000C06C80B2704700000020014010B500BF0D
:1009F000BF2080F31188BFF34F8FBFF36F8F00BF0D
:100A000000F0A8FE18B14FF080500449086000BF04
:100A1000002080F3118800BF10BD000004ED00E04D
:100A20001448006840F470001249086012480068D9
:100A300040F001001049086000200F4908310860AB
:100A40000D4800680D4908400B4908600C48091D15
:100A50000860081F006820F48020091F086000203B
:100A600005490C3108604FF0006002498039086088
:100A70007047000088ED00E000380240FFFFF6FEFE
:100A80001030002410B51848006800F0200048B36A
:100A90001548006820F020001349086008464068A7
:100AA00030280DD1FFF782FF0A20FFF77FFF0FA04C
:100AB000FFF76EFF0F48006820F400400D49086002
:100AC0000948406831280DD1FFF770FF0A20FFF771
:100AD0006DFF09A0FFF75CFF0648006840F4004086
:100AE0000449086010BD0000001001404F46460D4B
:100AF0000A000000140C02404F4E0D0A00000000D6
:100B00001848006820F04040164908600846006810
:100B100020F0605008600846006840F040500860CF
:100B200010482830006840F004000E492831086061
:100B30000D48006840F400200B4908600A4808305E
:100B4000006840F0F000084908310860081D00689E
:100B500040F48020091D08600348406A0249486249
:100B60007047000008380240000802401CB5FFF73B
:100B70004BFEFFF7C5FFFFF7FFFDFFF79BFEFFF7FB
:100B8000A5FD0020012103464A02CDE900100DA178
:100B90000D4800F0AFFD0020022103460A02CDE916
:100BA00000100AA10A4800F0A5FD0022022105203C
:100BB00000F0E4FB0749086000F046FB01E0FFF7A6
:100BC000D3FEFCE7484D49006D180008414443003E
:100BD000AD160008000000202DE9F04105460E4644
:100BE0001648076816480068001D00F06DFA681C7A
:100BF00038B936B112480168091D124800F0ABFA45
:100C00001AE07C190E4800684460BC4207D20C48C8
:100C10000168091D0C48006800F083FA0CE00848E0
:100C20000168091D0948006800F07BFA084800685F
:100C3000844201D206480460BDE8F0812C00002007
:100C400018000020082D0120200000201C0000209A
:100C50004800002010B5044600F08AFA22480068D7
:100C6000401C214908602148006840B91F480460C1
:100C70000846006801280DD100F024F90AE01C485C
:100C8000006838B919480068C06AE16A884201D82A
:100C90001648046017480068401C16490860164949
:100CA000E06A0968884202D91349E06A0860E16A8B
:100CB00001EB8101114A02EB8100211D00F04BFA8A
:100CC00000F068FA0A48006868B108480068C06A1D
:100CD000E16A884207D24FF0805009490860BFF3AB
:100CE0004F8FBFF36F8F10BD280000201800002029
:100CF000340000204400002030000020542C01204B
:100D000004ED00E010B516E000F032FA0C48C068BF
:100D1000C468201D00F0D8F90A480068401E09493F
:100D2000086009480068401E0749086000F032FA70
:100D3000204600F055F8044800680028E4D110BDB2
:100D4000F42C0120280000202400002070B5044667
:100D50000D46206C70B1216CE0680844E060616869
:100D6000E068884201D32068E0602846226CE16890
:100D7000FFF780FB70BD2DE9F04104460F46154694
:100D80004FF00008A66B206C28B37DB93946226C61
:100D9000A068FFF76FFB216CA0680844A060D4E94D
:100DA0000110884217D32068A06014E03946226CF5
:100DB000E068FFF75FFB216CE068401AE0602168A3
:100DC000E068884203D2216C6068401AE060022D1E
:100DD00001D106B1761E701CA0634046BDE8F081CB
:100DE00010B50446206B00F0E5F9204600F0E2F96A
:100DF00010BD000000BFFFF785FF0648006801280E
:100E0000F9D94FF0805004490860BFF34F8FBFF30A
:100E10006F8FF0E7542C012004ED00E02DE9F04144
:100E200006460D4617469846069C0DB9246000E01C
:100E30002760E66325640121204600F0BBFABDE887
:100E4000F0812DE9FF5F80460E469146DDE90E7A7E
:100E5000109CA9F10100216B01EB800B2BF0070B1B
:100E6000002507E0715D04F134004155705D00B963
:100E700002E06D1C102DF5D300BF00214320015569
:100E8000052F00D30427E762201D00F047F904F185
:100E9000180000F043F92461C7F10500A061646205
:100EA0000020606484F8480041465846039A00F0E8
:100EB000F5F82060BAF1000F01D0CAF80040BDE893
:100EC000FF9F000010B5002407E004EB84010F4AE7
:100ED00002EB810000F015F9641C052CF5D30C48D9
:100EE00000F00FF90B4800F00CF90B4800F009F97D
:100EF0000A4800F006F90A4800F003F904480949D5
:100F0000086004480849086010BD0000542C012006
:100F1000B82C0120CC2C0120E02C0120F42C012045
:100F2000082D01201C0000202000002070B505467F
:100F300000F01EF9A86B08B9012400E0002400F0BD
:100F400029F9204670BD70B5054600F011F9A86B6F
:100F5000E96B884201D1012400E0002400F01AF975
:100F6000204670BD0A490968096809B9012100E0F5
:100F7000002121B14FF0FF31064A116006E004491B
:100F80000968C968C868034A416811607047000071
:100F90001C0000204800002000BFBF2080F3118803
:100FA000BFF34F8FBFF36F8F00BF00BFFEE770B579
:100FB000044600F0DDF894F9455010E0606A08B985
:100FC000012000E0002038B904F1240000F0B0FC5A
:100FD00018B100F023F900E003E0681E45B2002DCF
:100FE000ECDC00BFFF2084F8450000F0D3F800F0EF
:100FF000BFF894F9445010E0206908B9012000E0DE
:10100000002048B904F1100000F092FC08B100F093
:1010100005F9681E45B200E001E0002DECDC00BFE0
:10102000FF2084F8440000F0B5F870BD70B50446A8
:10103000002504F0070020B104F00700C0F108000B
:10104000044400F033F91148006820B9104820F03A
:1010500007000E4908600F48006820440E49884286
:1010600010D20C48006820440A490968884209D90E
:101070000648006807490968451806480068204482
:101080000449086000F094FC284670BD1000002060
:101090005C0000200C000020F82B0100001F4FF026
:1010A00080730360001F21F001030360001F054BE4
:1010B000036014380260001F6FF0020303602038E1
:1010C00070470000990F000801460A69D1E9013014
:1010D0009860D1E9010358605068884201D188685E
:1010E0005060002008611068401E10601068704752
:1010F00070B5044600F03CF8A56B00F04BF82846AC
:1011000070BD00F1080141604FF0FF31816000F1D6
:101110000801C16001610021016070470021016187
:10112000704710B502460B685C1C0CB9106907E0EB
:1011300002F1080000E04068446824689C42FAD943
:1011400044684C604C68A160886041600A61146822
:10115000641C146010BD42684A6093688B60936899
:1011600059609160086103685B1C03607047000070
:1011700000BFBF2080F31188BFF34F8FBFF36F8F85
:1011800000BF03480068401C014908607047000028
:101190001400002006480068401E05490860084603
:1011A000006820B9002080F3118800BF00BF70479D
:1011B000140000207047000000204FF0E02108617B
:1011C000886102484861072008617047BFD4010068
:1011D00070B50446002544B100F068F800212046AF
:1011E000FFF7FAFC00F0E4FB05463DB94FF08050F4
:1011F00003490860BFF34F8FBFF36F8F70BD0000CE
:1012000004ED00E003490968016003490968416091
:1012100070470000400000202C0000200120014900
:10122000086070473C00002070B505460C46054834
:10123000016818312846FFF774FF01212046FFF7A7
:10124000CBFC70BD180000201CB5114800210B46D6
:101250002022CDE900100FA1104800F04BFA0446FF
:10126000012C14D100BFBF2080F31188BFF34F8F32
:10127000BFF36F8F00BF4FF0FF30094908600120B6
:101280000849086000200849086000F053F81CBDB8
:101290004C00002049444C4500000000F50D0008BA
:1012A00048000020340000202C0000200248006884
:1012B000401C014908607047500000201848006831
:1012C00018B101201749086028E00020154908607E
:1012D0001548016800E0491E01EB8100134A52F8ED
:1012E000200008B9012000E000200028F3D101EB24
:1012F00081020E4B03EB820042685268426000F1AB
:1013000008024368934202D14268526842604268D0
:10131000D268074B1A600448016000BF70470000A4
:10132000500000203C00002030000020542C012000
:101330001800002010B50E48006840F47F000C49EA
:1013400008600846006840F07F400860FFF734FFFF
:10135000002008490860FEF7ADFF0748006840F02C
:10136000404005490860FEF791FF002010BD0000D5
:1013700020ED00E01400002034EF00E02DE9F843F8
:1013800007460D4690460DB9002601E007FB05F61D
:1013900006F14800FFF74AFE044644B104F148094B
:1013A00043464A46294638460094FFF737FD204613
:1013B000BDE8F88370B505460E462C46FFF7D8FE0B
:1013C000D4E90F12206801FB020060600020A063D6
:1013D0002068A060E06B401E226C216800FB0210B8
:1013E000E060FF2084F8440084F845009EB920693D
:1013F00008B9012000E00020A8B904F1100000F0B5
:1014000097FA80B14FF0805009490860BFF34F8FC1
:10141000BFF36F8F07E004F11000FFF772FE04F1D5
:101420002400FFF76EFEFFF7B5FE012070BD00003F
:1014300004ED00E02DE9FF4383B0074688461D46D2
:101440004FF000093C4600BFFFF792FEA06BE16B36
:10145000884201D3022D28D12A4641462046FFF773
:101460008AFC0646606A08B9012000E0002068B9DD
:1014700004F1240000F05CFA88B14FF0805032494A
:101480000860BFF34F8FBFF36F8F08E03EB14FF09E
:1014900080502D490860BFF34F8FBFF36F8FFFF768
:1014A00079FE012007B0BDE8F083059818B9FFF771
:1014B00071FE0020F6E7B9F1000F04D101A8FFF793
:1014C000A1FE4FF00109FFF765FEFFF7EFFEFFF702
:1014D0004FFE94F94400401C10B9002084F84400E9
:1014E00094F94500401C10B9002084F84500FFF72E
:1014F00051FE05A901A800F0ABF8F0B92046FFF7AE
:1015000022FDA0B104F110000599FFF78DFE2046E1
:10151000FFF74DFD00F04CFA002895D14FF08050B8
:1015200009490860BFF34F8FBFF36F8F8CE72046E8
:10153000FFF73DFD00F03CFA86E72046FFF737FD58
:1015400000F036FA0020ADE704ED00E02DE9F741A8
:1015500083B005460F464FF000082C4600BFFFF74A
:1015600007FEA66BF6B139462046FFF7EFFB701E6B
:10157000A063206908B9012000E0002060B904F1EF
:10158000100000F0D5F938B14FF080502F490860B5
:10159000BFF34F8FBFF36F8FFFF7FCFD012006B045
:1015A000BDE8F081059818B9FFF7F4FD0020F6E7D3
:1015B000B8F1000F04D101A8FFF724FE4FF0010895
:1015C000FFF7E8FDFFF772FEFFF7D2FD94F9440044
:1015D000401C10B9002084F8440094F94500401CD8
:1015E00010B9002084F84500FFF7D4FD05A901A833
:1015F00000F02EF8F0B92046FFF798FCA0B104F1F6
:1016000024000599FFF710FE2046FFF7D0FC00F0FC
:10161000CFF90028A3D14FF080500C490860BFF3E8
:101620004F8FBFF36F8F9AE72046FFF7C0FC00F0A3
:10163000BFF994E72046FFF7BAFC00F0B9F920465D
:10164000FFF774FC00288AD00020A8E704ED00E032
:1016500070B506460C46FFF78BFD124802687068AD
:10166000131A2068401C08B9002517E00E4930689D
:101670000968884204D07068904201D801250DE0C5
:101680002068984207D92068C01A20603046FFF7CA
:10169000B9FD002502E0002020600125FFF77AFD5A
:1016A000284670BD2C0000204000002008B57D2099
:1016B000009019E0FFF786F90090BDF80000C1170F
:1016C00000EB11710911009100231A466946074881
:1016D0000068FFF7AFFE0648406980F0200004492B
:1016E00048616420FFF774FDE4E70000000000207B
:1016F000000002402DE9FF4F85B08046894617461D
:10170000DDE912ABB800FFF791FC064656B14C205C
:10171000FFF78CFC04460CB1266304E03046FFF76B
:1017200049FD00E000247CB10020CDE900ABCDE90B
:1017300002403A4649464046089BFFF782FB204656
:10174000FFF788FA012501E04FF0FF35284609B080
:10175000BDE8F08F2DE9F0410027394800680028E6
:1017600062D138480068451C364805608DB9364856
:10177000D0F8008035480068334908603348C0F825
:10178000008033480068401C31490860FFF7EAFBDD
:1017900000BF3048006885423AD300BF2A4800683D
:1017A000006808B9012000E0002020B14FF0FF30B0
:1017B000284908602BE024480068C068C46866684F
:1017C000B54202D22348066021E0201DFFF77CFCD1
:1017D000A06A18B104F11800FFF776FC1E49E06A10
:1017E0000968884202D91C49E06A0860E16A01EB95
:1017F00081011A4A02EB8100211DFFF7ACFC184958
:10180000E06A0968C96A8842C8D30127C6E700BFF1
:1018100013480068C06A00EB8000104951F82000AE
:10182000012800D9012704E00E480068401C0D493A
:1018300008600D48006800B101273846BDE8F08116
:10184000500000202C0000201C0000202000002060
:10185000400000204800002030000020542C0120CF
:1018600018000020380000203C0000201CB500209B
:10187000019022A0FFF78CF8FF20FFF77DF8FF20F2
:10188000FFF77AF8FF20FFF777F835E01F48006888
:10189000FFF72EFC00282CD0002201A91B4800686D
:1018A000FFF754FEBDF8042019A16846FEF75EFD5F
:1018B00018A0FFF76DF86846FFF76AF818A0FFF761
:1018C00067F8FF20FFF758F8FF20FFF755F8FF20D3
:1018D000FFF752F813A0FFF75BF86846FFF758F8D8
:1018E000FF20FFF749F8FF20FFF746F8FF20FFF73A
:1018F00043F80A20FFF76CFCC8E7000062617564DA
:10190000733D3131353230300000000000000020DE
:101910002575000054657874312E7478743D22006A
:101920002200000061646420332C302C0000000091
:1019300070B50646F068C46804F11800FFF7C4FBF0
:1019400015480068A0B9201DFFF7BEFB1349E06AE7
:101950000968884202D91149E06A0860E16A01EB2E
:1019600081010F4A02EB8100211DFFF7F4FB04E027
:1019700004F118010B48FFF7EEFB0B49E06A096818
:10198000C96A884204D9012501200849086000E09D
:101990000025284670BD00005000002030000020C7
:1019A000542C0120E02C0120180000203C000020D5
:1019B00070B500240026FFF7DBFB2E480068401EB0
:1019C0002C4908600846006800284ED12A48006863
:1019D00000284AD023E02948C068C46804F11800F0
:1019E000FFF772FB201DFFF76FFB2549E06A0968CE
:1019F000884202D92249E06A0860E16A01EB81016C
:101A0000204A02EB8100211DFFF7A5FB1E49E06A79
:101A10000968C96A884202D301201C490860174836
:101A2000006808B9012000E000200028D3D00CB1E4
:101A3000FFF798FA1648056865B100BFFFF78AFE00
:101A400010B10120114908606D1E002DF6D1002053
:101A50000F4908600D48006838B1012630070D496C
:101A60000860BFF34F8FBFF36F8FFFF793FB3046D4
:101A700070BD00005000002028000020E02C012054
:101A800030000020542C0120180000203C000020D1
:101A90003800002004ED00E04FF04070E1EE100A45
:101AA00070470000C41A0008000000205400000025
:101AB00000020008181B0008540000202C3301000D
:101AC0001C020008000000000000000001000000EF
:101AD0000000000000000000AAAAAAAA000000005E
:101AE00000000000000000000000000000000000F6
:101AF00000000000000000000000000000000000E6
:101B000000000000000000000000000000000000D5
:081B10000000000000000000CD
:04000005080001C529
:00000001FF
>>>>>>> Stashed changes
